MEMORY_INITIALIZATION_RADIX=2;
MEMORY_INITIALIZATION_VECTOR=
11000001001100000000110000010001110100000011011100,
11010000011100001111110011111101000111000000000011,
00000011011100110001010101001100111101010011011101,
00000100000000110001110000010011010101000000010001,
01011100001111111100000100000011111100110000110011,
11010111011111010001011100000100111111010100000011,
00000100110000000001000000011111111100000000000000,
01110101000111000101110001111101000101110001000001,
00010001110011000101010011000100000111110000010011,
01000001000001011101001101010111010100010011111101,
11000100111100110111000101011111111101011100011101,
00111101111100010000000100000101001111000101111101,
11111101010100010000010000011101110111000011001111,
00110101001101111111111101011100110001000000110111,
11000001000000010100110101010111000100000111001101,
01110100110101001101010011011101110000010100111100,
11000101000011011101111111000101111101010100110101,
11110100110001110100000100110001001101001101000100,
00010001011111001101000100001111010000010001110000,
00010000000111110100010001010001010101111100111111,
01010011010100010100010011011100011111011101110001,
01110011110000110000011100010000111111111111001100,
01110100000000110000000101110100001101000100000011,
01001111010100001101000001010000110011000111011101,
01011100110101110111011101001101110000110101110001,
00011111000100010011001100110111011100110101111100,
00010100000000001111111111011111011100001100011100,
01010011000101001100111100010111011111111111110101,
00000101001111000011000000000100000101110101011111,
00000111000011000011001111000011001100110000110100,
11110100000111110011111111010101110111011111011111,
00010011111101110101010001010001011101000001000100;